// 自動生成的帕金森症AI模型 - 包含真實權重
// 生成時間: 2025-08-02 23:36:52.340416
// 模型類型: 簡化線性分類器
// 輸入: [50, 9] 時間序列
// 輸出: [5] 帕金森等級

#ifndef MODEL_DATA_H
#define MODEL_DATA_H

#include <Arduino.h>

// TensorFlow Lite模型數據 (最小有效格式)
const unsigned int model_data_len = 466;
const unsigned char model_data[] = {

  0x1c, 0x00, 0x00, 0x00, 0x54, 0x46, 0x4c, 0x33, 0x14, 0x00, 0x20, 0x00, 0x04, 0x00, 0x08, 0x00, 
  0x0c, 0x00, 0x10, 0x00, 0x14, 0x00, 0x18, 0x00, 0x1c, 0x00, 0x00, 0x00, 0x03, 0x00, 0x00, 0x00, 
  0xf8, 0x00, 0x00, 0x00, 0x00, 0x01, 0x00, 0x00, 0x04, 0x01, 0x00, 0x00, 0x10, 0x00, 0x00, 0x00, 
  0x00, 0x00, 0x0a, 0x00, 0x0c, 0x00, 0x07, 0x00, 0x08, 0x00, 0x0a, 0x00, 0x00, 0x00, 0x00, 0x00, 
  0x00, 0x09, 0x04, 0x00, 0x00, 0x00, 0x01, 0x00, 0x00, 0x00, 0x10, 0x00, 0x00, 0x00, 0x00, 0x00, 
  0x06, 0x00, 0x08, 0x00, 0x04, 0x00, 0x06, 0x00, 0x00, 0x00, 0x04, 0x00, 0x00, 0x00, 0x8c, 0x00, 
  0x00, 0x00, 0x90, 0x00, 0x00, 0x00, 0x94, 0x00, 0x00, 0x00, 0x9c, 0x00, 0x00, 0x00, 0x01, 0x00, 
  0x00, 0x00, 0x14, 0x00, 0x00, 0x00, 0x00, 0x00, 0x0e, 0x00, 0x18, 0x00, 0x04, 0x00, 0x08, 0x00, 
  0x0c, 0x00, 0x10, 0x00, 0x14, 0x00, 0x0e, 0x00, 0x00, 0x00, 0x03, 0x00, 0x00, 0x00, 0x03, 0x00, 
  0x00, 0x00, 0x32, 0x00, 0x00, 0x00, 0x09, 0x00, 0x00, 0x00, 0x05, 0x00, 0x00, 0x00, 0x34, 0x00, 
  0x00, 0x00, 0x44, 0x00, 0x00, 0x00, 0x54, 0x00, 0x00, 0x00, 0x64, 0x00, 0x00, 0x00, 0x74, 0x00, 
  0x00, 0x00, 0x02, 0x00, 0x00, 0x00, 0x32, 0x00, 0x00, 0x00, 0x09, 0x00, 0x00, 0x00, 0x04, 0x00, 
  0x04, 0x00, 0x04, 0x00, 0x00, 0x00, 0x02, 0x00, 0x00, 0x00, 0x05, 0x00, 0x00, 0x00, 0x04, 0x00, 
  0x04, 0x00, 0x04, 0x00, 0x00, 0x00, 0x0c, 0x00, 0x10, 0x00, 0x04, 0x00, 0x08, 0x00, 0x0c, 0x00, 
  0x00, 0x00, 0x09, 0x00, 0x00, 0x00, 0x04, 0x00, 0x00, 0x00, 0x01, 0x00, 0x00, 0x00, 0x00, 0x00, 
  0x00, 0x00, 0x0c, 0x00, 0x14, 0x00, 0x04, 0x00, 0x08, 0x00, 0x0c, 0x00, 0x10, 0x00, 0x0c, 0x00, 
  0x00, 0x00, 0x20, 0x00, 0x00, 0x00, 0x20, 0x00, 0x00, 0x00, 0x01, 0x00, 0x00, 0x00, 0x20, 0x00, 
  0x00, 0x00, 0x00, 0x00, 0x00, 0x00, 0x01, 0x00, 0x00, 0x00, 0x00, 0x00, 0x00, 0x00, 0x01, 0x00, 
  0x00, 0x00, 0x00, 0x00, 0x00, 0x00, 0x0c, 0x00, 0x00, 0x00, 0x69, 0x6e, 0x70, 0x75, 0x74, 0x5f, 
  0x74, 0x65, 0x6e, 0x73, 0x6f, 0x72, 0x00, 0x00, 0x00, 0x00, 0x02, 0x00, 0x00, 0x00, 0x32, 0x00, 
  0x00, 0x00, 0x09, 0x00, 0x00, 0x00, 0x0d, 0x00, 0x00, 0x00, 0x6f, 0x75, 0x74, 0x70, 0x75, 0x74, 
  0x5f, 0x74, 0x65, 0x6e, 0x73, 0x6f, 0x72, 0x00, 0x00, 0x00, 0x01, 0x00, 0x00, 0x00, 0x05, 0x00, 
  0x00, 0x00, 0x01, 0x00, 0x00, 0x00, 0x10, 0x00, 0x00, 0x00, 0x0c, 0x00, 0x0c, 0x00, 0x00, 0x00, 
  0x00, 0x00, 0x08, 0x00, 0x04, 0x00, 0x0c, 0x00, 0x00, 0x00, 0x09, 0x00, 0x00, 0x00, 0x01, 0x00, 
  0x00, 0x00, 0x00, 0x00, 0x00, 0x00, 0x01, 0x00, 0x00, 0x00, 0x01, 0x00, 0x00, 0x00, 0x01, 0x00, 
  0x00, 0x00, 0x00, 0x00, 0x00, 0x00, 0x08, 0x00, 0x0c, 0x00, 0x04, 0x00, 0x08, 0x00, 0x08, 0x00, 
  0x00, 0x00, 0x09, 0x00, 0x00, 0x00, 0x04, 0x00, 0x00, 0x00, 0x15, 0x00, 0x00, 0x00, 0x6d, 0x69, 
  0x6e, 0x5f, 0x72, 0x75, 0x6e, 0x74, 0x69, 0x6d, 0x65, 0x5f, 0x76, 0x65, 0x72, 0x73, 0x69, 0x6f, 
  0x6e, 0x00, 0x0c, 0x00, 0x00, 0x00, 0x32, 0x2e, 0x31, 0x33, 0x2e, 0x30, 0x00, 0x00, 0x00, 0x00, 
  0x00, 0x00
};

// 簡化模型的權重和參數
const int kModelFeatureDim = 54;
const int kModelOutputDim = 5;

const float model_weights[54][5] = {
  { -0.037812, -0.008810, -0.202252, 0.000217, 0.105424 },
  { 0.038536, -0.027349, 0.173143, -0.103895, 0.042946 },
  { -0.142737, 0.073307, 0.048784, -0.013493, 0.058238 },
  { -0.213131, -0.041157, -0.144973, 0.062176, 0.057246 },
  { -0.108202, -0.132236, 0.079312, 0.164094, 0.043547 },
  { 0.002832, -0.111464, 0.051012, 0.158913, 0.115534 },
  { 0.026019, -0.002774, 0.017518, 0.069934, -0.036744 },
  { -0.236123, -0.071162, -0.039854, -0.133255, -0.236215 },
  { -0.059015, 0.018675, 0.024062, 0.086386, -0.168143 },
  { -0.106064, -0.013895, -0.145488, 0.131072, 0.020331 },
  { -0.203438, 0.068777, 0.030312, 0.165459, 0.131640 },
  { -0.014294, 0.007316, 0.202508, 0.197944, 0.036058 },
  { -0.098626, -0.038356, 0.058549, 0.105721, -0.067687 },
  { -0.061442, -0.104842, 0.281842, 0.143122, 0.003533 },
  { -0.122654, -0.088167, 0.042859, -0.078424, 0.032050 },
  { -0.039273, -0.254551, -0.081609, 0.099294, 0.142211 },
  { 0.093924, 0.020077, -0.006218, 0.095262, 0.106163 },
  { 0.126425, -0.026920, -0.068971, 0.007813, 0.200586 },
  { 0.013331, 0.048706, 0.038754, 0.077503, -0.129969 },
  { 0.055118, 0.003216, 0.024242, 0.051818, -0.003409 },
  { -0.014877, -0.027744, 0.279972, 0.082186, 0.160149 },
  { -0.061022, -0.097604, 0.190265, 0.116330, -0.155127 },
  { -0.022935, -0.057953, 0.099560, 0.133724, -0.126905 },
  { -0.038346, -0.061226, -0.156112, -0.150704, 0.282565 },
  { -0.024870, -0.031872, 0.028451, 0.042623, -0.121488 },
  { -0.030150, 0.172834, -0.058616, -0.086277, 0.021075 },
  { 0.044896, 0.011910, -0.049646, 0.019342, 0.117306 },
  { -0.082782, -0.025176, -0.056631, 0.048922, 0.007214 },
  { -0.022331, 0.145705, -0.063479, 0.111690, 0.113385 },
  { -0.007047, 0.075043, 0.084315, -0.088005, -0.065637 },
  { 0.027842, -0.067362, -0.033756, -0.057567, -0.197163 },
  { 0.017291, -0.031997, -0.123536, 0.025956, 0.163498 },
  { -0.073213, -0.199087, 0.037038, 0.088729, 0.197186 },
  { 0.080400, -0.168642, 0.022463, -0.201689, -0.151936 },
  { -0.051686, -0.041222, -0.020656, -0.066101, 0.077079 },
  { 0.055995, -0.014374, -0.045313, -0.169080, -0.053224 },
  { 0.052912, -0.077176, -0.058957, 0.051260, -0.099271 },
  { -0.003069, 0.083714, 0.108218, 0.143450, -0.057149 },
  { 0.086587, -0.089426, 0.172277, 0.062102, -0.049876 },
  { -0.101005, -0.024111, 0.131263, 0.085735, 0.003515 },
  { 0.086806, 0.112071, 0.015869, 0.020294, -0.174179 },
  { -0.078179, -0.040673, -0.058575, 0.136186, -0.042886 },
  { 0.126567, 0.109674, 0.098204, -0.088573, -0.034388 },
  { -0.268080, 0.056693, -0.003059, 0.149633, 0.065068 },
  { 0.125181, 0.189865, -0.191458, 0.059535, 0.011429 },
  { -0.121313, 0.061995, 0.050265, -0.061358, 0.021619 },
  { 0.246037, -0.204387, -0.060680, 0.143317, -0.070753 },
  { -0.045581, -0.063705, -0.024008, 0.022249, -0.010512 },
  { 0.031275, -0.266789, 0.085347, 0.127074, 0.092598 },
  { -0.043404, 0.205132, 0.093278, -0.079850, 0.199091 },
  { 0.018247, -0.286859, 0.011378, -0.028415, -0.105711 },
  { -0.011261, -0.060959, -0.114769, 0.029744, 0.009059 },
  { 0.022450, -0.308310, 0.156013, -0.014452, 0.025266 },
  { -0.117663, -0.037283, -0.053321, 0.003272, 0.209272 }

};

const float model_bias[5] = { -0.000058, 0.000047, 0.000058, 0.000019, -0.000066 };

const float scaler_mean[54] = { 0.348861, 0.347197, 0.345794, 0.347224, 0.348983, 0.350810, 0.524722, 0.465956, 0.433420, 0.291069, 0.290716, 0.289849, 0.290424, 0.290770, 0.047808, 0.353408, 0.354370, 0.362171, 0.787993, 0.787681, 0.783121, 0.785143, 0.785919, 0.461633, 0.999859, 0.999632, 0.999785, 0.000000, 0.000000, 0.000000, 0.000000, 0.000000, 0.249936, -0.096514, -0.106592, -0.112829, 0.209541, 0.129176, 0.215441, 0.132125, 0.217421, 0.133102, 0.213561, 0.130336, 0.205880, 0.130252, 0.052180, 0.054946, 0.057220, 0.125212, 0.061100, 0.125886, 0.062400, 0.123711 };

const float scaler_std[54] = { 0.177114, 0.175773, 0.176330, 0.176058, 0.177486, 0.211143, 0.264064, 0.297986, 0.316222, 0.130190, 0.130086, 0.130074, 0.130272, 0.130000, 0.005295, 0.190920, 0.190715, 0.194834, 0.269635, 0.269929, 0.271571, 0.272673, 0.270926, 0.213390, 0.001944, 0.002838, 0.002339, 0.000000, 0.000000, 0.000000, 0.000000, 0.000000, 0.196300, 0.549880, 0.554087, 0.552761, 0.081559, 0.031600, 0.083013, 0.033811, 0.087618, 0.035142, 0.080115, 0.033330, 0.086356, 0.032443, 0.110066, 0.007491, 0.049750, 0.039710, 0.052832, 0.040003, 0.057778, 0.036365 };


// 模型元數據
const bool kIsRealModel = true;
const char* kModelType = "LinearClassifier";
const char* kModelDescription = "Simplified Parkinson Analysis Model";

#endif // MODEL_DATA_H
